[PAD]
[UNK]
[CLS]
[SEP]
[MASK]
"
"#
"##
"##"
"##".
"[
"[U
"[UNK]"
"[UNK]".
"p
"pl
##"
###
##'
##'s
##)
##),
##).
##*
##+
##++
##,
##-
##-A
##-Au
##-Aug
##-Augm
##-B
##-C
##-D
##-E
##-H
##-L
##-M
##-N
##-R
##-SNE)
##-T
##-b
##-obj
##-qu
##-w
##.
##0
##1
##2
##2C
##3
##3C
##5
##7
##:
##A
##A2C
##A3C
##AG
##AI'
##AI's
##AISS
##API
##ART
##B
##BS
##BSC
##BSCA
##BSCAN
##C
##CNN
##Ch
##Cy
##Cy,
##D
##DB
##DB,
##DQ
##DQN
##E
##EINFORC
##EINFORCE
##ELU
##ERT
##EST
##F
##FNN
##FO
##Fl
##Flo
##Flow
##G
##GB
##GBM
##GD
##GR
##GRU
##H
##HF
##I
##I'
##INFORC
##ISS
##K
##K]
##K]"
##L
##LHF
##LM
##LO
##LSTM
##LTK
##LU
##LU,
##M
##MA
##MAE
##MLO
##MS
##MSE
##N
##NFO
##NFOR
##NFORC
##NK]"
##NN
##O
##O)
##OC
##P
##PE
##PI
##PO)
##PPO)
##PT
##PU
##Py
##Q
##R
##RA
##RA,
##RAG
##RLHF
##RM
##RMS
##RMSE
##RNN
##ROC
##RT
##R²
##S
##SGD
##SN
##SNE
##SNE)
##SS
##ST
##STM
##T
##TK
##Ts
##Ts)
##U
##UD
##UDA
##UMA
##V
##VC
##W
##WS
##[
##]
##a
##b
##bj
##c
##ck-b
##ck-bo
##ck-box
##d
##d*
##dP
##e
##f
##g
##g"
##gCh
##gG
##gh-qu
##h
##h-qu
##i
##j
##k
##k-b
##l
##l'
##l's
##l-Augm
##l-w
##l-wo
##m
##mPy
##mW
##n
##o
##oRA
##obj
##oss-E
##p
##q
##qu
##r
##s
##s-B
##s-Bo
##s-Bou
##s-Boul
##s-Bould
##s-E
##s:
##ss-E
##t
##u
##ubj
##umPy
##v
##vO
##vOp
##vOps
##w
##w-R
##x
##y
##y"
##y'
##y's
##yT
##z
##²
&
(
(A
(A2C
(A2C)
(A2C),
(A3C
(A3C)
(A3C),
(AU
(AUC
(AUC)
(AUC).
(B
(BP
(BPE
(BPE)
(BPE),
(CNN
(CNNs
(CNNs)
(DQN
(DQN)
(FNN
(FNNs
(FNNs)
(G
(GP
(GPU
(GPUs
(GPUs)
(GRU
(GRUs
(GRUs)
(K
(K)
(K),
(L
(LLM
(LLMs
(LLMs)
(LSTM
(LSTM)
(Lo
(Low-R
(MAE
(MAE)
(MAE),
(MLO
(MLOp
(MLOps
(MLOps)
(MLOps).
(MSE
(MSE)
(MSE),
(P
(PC
(PCA
(PCA)
(PPO)
(PPO),
(Q
(Q)
(Q),
(RAG
(RAG)
(RAG),
(RAG).
(RLHF
(RLHF)
(RLHF),
(RMSE
(RMSE)
(RMSE),
(RNN
(RNNs
(RNNs),
(ROC
(ROC)
(R²
(R²)
(R²).
(S
(SA
(SAC
(SAC)
(SAC).
(SGD
(SGD)
(SGD),
(UMA
(UMAP
(UMAP)
(V
(V)
(V).
*
*A
2
20
201
2017
2017,
A
AI
AI,
API
APIs
APIs,
APIs.
AWS
AWS,
B
BART
BERT
BERT,
BPE
BPE-
BPE-b
By
C
C++
C++,
CUDA
CUDA,
CUDA.
D
DBSCAN
DVC
DVC,
E
E-
E-c
E-co
E-com
E-comm
Ev
Ex
Exp
Expl
Explo
F
F1
F1-
F1-s
F1-sc
F1-sco
FAISS
FAISS,
G
GELU
GELU,
GPT
GPT,
GPT-
GPT-f
GPU
H
Hu
Hug
Hugg
Hum
I
K
K-M
Ku
Kub
L
LLM
LoRA
M
ML
MLO
MLOp
MLOps
MLOps.
MLf
MLfl
MLflo
MLflow
MLflow,
N
NLTK
NLTK.
NumPy
O
Obj
Op
Ov
P
Py
PyT
PyTo
Q
Q-L
Q-N
QL
QLo
QLoRA,
Qu
R
RAG
REINFORCE
REST
RMS
RMSP
S
Sq
Squ
T
T5
TPU
TPUs
TPUs.
Th
U
V
W
X
XG
XGB
XGBo
XGBoo
XGBoos
Y
Yo
You
a
b
by
c
d
e
ev
ex
exp
f
g
h
i
k
k-
k-N
l
m
n
o
obj
of
p
q
qu
r
s
subj
t
t-D
th
u
v
w
wh
