<unk>	0
<s>	0
</s>	0
<pad>	0
in	-0
re	-1
on	-2
▁a	-3
▁t	-4
en	-5
at	-6
er	-7
ing	-8
or	-9
ion	-10
al	-11
le	-12
▁s	-13
ar	-14
▁m	-15
an	-16
es	-17
▁c	-18
▁th	-19
▁p	-20
▁d	-21
ent	-22
ation	-23
it	-24
ic	-25
ed	-26
▁re	-27
▁an	-28
ro	-29
el	-30
ct	-31
▁o	-32
▁the	-33
is	-34
▁b	-35
▁f	-36
ch	-37
▁in	-38
▁and	-39
▁to	-40
od	-41
us	-42
▁e	-43
arn	-44
▁w	-45
▁le	-46
as	-47
▁learn	-48
▁l	-49
om	-50
ce	-51
ra	-52
ly	-53
et	-54
im	-55
▁of	-56
▁learning	-57
odel	-58
for	-59
ge	-60
ut	-61
▁n	-62
▁model	-63
res	-64
ur	-65
iz	-66
if	-67
ab	-68
ve	-69
▁pro	-70
form	-71
ers	-72
un	-73
▁h	-74
ul	-75
ment	-76
ations	-77
▁con	-78
ig	-79
ith	-80
ine	-81
▁su	-82
st	-83
▁de	-84
ms	-85
▁com	-86
▁dat	-87
ces	-88
id	-89
▁ma	-90
qu	-91
ken	-92
age	-93
▁be	-94
▁int	-95
▁al	-96
▁en	-97
ow	-98
pl	-99
▁T	-100
ect	-101
▁ex	-102
▁token	-103
il	-104
per	-105
▁pre	-106
▁models	-107
ang	-108
ate	-109
ical	-110
ran	-111
rain	-112
▁as	-113
ver	-114
▁comp	-115
▁g	-116
▁on	-117
angu	-118
ction	-119
▁v	-120
ol	-121
▁us	-122
▁M	-123
rans	-124
▁langu	-125
▁se	-126
▁cont	-127
▁A	-128
▁wh	-129
▁language	-130
ity	-131
ific	-132
▁for	-133
▁im	-134
cess	-135
ure	-136
▁un	-137
th	-138
ies	-139
▁are	-140
chine	-141
ial	-142
▁is	-143
▁or	-144
ding	-145
▁with	-146
du	-147
▁that	-148
▁trans	-149
ant	-150
ste	-151
able	-152
▁train	-153
▁by	-154
ain	-155
gor	-156
pro	-157
wor	-158
▁st	-159
▁data	-160
resent	-161
▁rep	-162
ere	-163
ous	-164
ization	-165
▁machine	-166
ures	-167
ir	-168
ug	-169
pt	-170
um	-171
ust	-172
▁Th	-173
ds	-174
oc	-175
ist	-176
▁sy	-177
▁pred	-178
▁represent	-179
am	-180
vis	-181
▁ar	-182
ence	-183
vised	-184
pervised	-185
ks	-186
▁D	-187
eat	-188
ive	-189
▁training	-190
▁ne	-191
▁transform	-192
ip	-193
alu	-194
ern	-195
ener	-196
ural	-197
gorith	-198
▁syste	-199
▁algorith	-200
ib	-201
▁ac	-202
▁cl	-203
▁bec	-204
os	-205
xt	-206
ance	-207
ep	-208
ict	-209
▁predict	-210
▁systems	-211
▁R	-212
▁ap	-213
▁te	-214
aset	-215
ore	-216
arge	-217
ering	-218
▁S	-219
low	-220
ugh	-221
▁me	-222
▁gener	-223
▁dataset	-224
▁process	-225
▁P	-226
ell	-227
ition	-228
▁such	-229
▁algorithms	-230
▁(	-231
▁L	-232
led	-233
rom	-234
▁feat	-235
ec	-236
ens	-237
igh	-238
ign	-239
▁res	-240
▁sim	-241
etwor	-242
▁from	-243
▁comput	-244
op	-245
▁C	-246
▁F	-247
vel	-248
▁inc	-249
ie	-250
ts	-251
ass	-252
▁em	-253
▁man	-254
▁per	-255
▁large	-256
▁E	-257
ile	-258
inu	-259
ult	-260
▁rel	-261
ellig	-262
ctions	-263
▁perform	-264
por	-265
vid	-266
▁ch	-267
arch	-268
ient	-269
plic	-270
▁wor	-271
rough	-272
▁impro	-273
▁produ	-274
▁continu	-275
ay	-276
ff	-277
are	-278
ual	-279
▁id	-280
very	-281
entif	-282
uring	-283
▁into	-284
▁networ	-285
▁identif	-286
▁intellig	-287
nt	-288
aus	-289
put	-290
▁The	-291
force	-292
inforce	-293
▁through	-294
▁datasets	-295
inforcement	-296
co	-297
▁ev	-298
fere	-299
ions	-300
▁using	-301
▁while	-302
formation	-303
kn	-304
▁I	-305
ach	-306
bed	-307
een	-308
ten	-309
▁ca	-310
▁it	-311
ated	-312
know	-313
▁eng	-314
bedding	-315
▁information	-316
est	-317
ful	-318
ost	-319
ause	-320
velop	-321
▁comple	-322
▁develop	-323
act	-324
ess	-325
▁ob	-326
chit	-327
ctor	-328
umer	-329
▁acc	-330
ments	-331
ational	-332
chitect	-333
▁engine	-334
▁architect	-335
▁transformer	-336
ru	-337
ese	-338
ize	-339
plo	-340
ram	-341
▁ad	-342
ular	-343
tific	-344
▁used	-345
▁applic	-346
tificial	-347
▁because	-348
upervised	-349
and	-350
ges	-351
▁sp	-352
▁bet	-353
▁eff	-354
odern	-355
▁most	-356
▁text	-357
▁every	-358
▁numer	-359
▁embedding	-360
▁supervised	-361
▁G	-362
hip	-363
ics	-364
port	-365
ptim	-366
▁und	-367
▁know	-368
▁clust	-369
itional	-370
▁improve	-371
ationship	-372
▁relationship	-373
▁reinforcement	-374
ad	-375
ot	-376
ire	-377
out	-378
ple	-379
und	-380
▁ve	-381
tent	-382
▁deep	-383
▁requ	-384
▁provid	-385
▁features	-386
▁performance	-387
end	-388
erv	-389
mon	-390
▁ag	-391
▁so	-392
abil	-393
ized	-394
ween	-395
▁det	-396
▁dif	-397
▁one	-398
▁par	-399
▁rem	-400
▁uns	-401
ously	-402
▁sequ	-403
▁valu	-404
tention	-405
▁neural	-406
▁between	-407
▁artificial	-408
▁intelligence	-409
▁computational	-410
te	-411
ud	-412
vi	-413
▁B	-414
▁O	-415
▁U	-416
▁W	-417
ath	-418
ble	-419
iev	-420
▁qu	-421
ject	-422
lect	-423
ploy	-424
▁sign	-425
atical	-426
atural	-427
▁agent	-428
▁becom	-429
▁evalu	-430
▁optim	-431
▁tokens	-432
▁numerical	-433
▁processing	-434
▁applications	-435
▁representations	-436
cy	-437
iv	-438
og	-439
▁N	-440
all	-441
cod	-442
rad	-443
vir	-444
▁dis	-445
▁rec	-446
▁ret	-447
ating	-448
ision	-449
viron	-450
▁class	-451
▁vector	-452
▁environ	-453
▁networks	-454
▁relationships	-455
ft	-456
chn	-457
ely	-458
ains	-459
ased	-460
ines	-461
▁aut	-462
▁cap	-463
▁has	-464
▁pos	-465
ables	-466
▁redu	-467
▁allow	-468
▁often	-469
▁techn	-470
▁words	-471
▁natural	-472
▁tokenization	-473
ave	-474
gan	-475
ocu	-476
ong	-477
ors	-478
war	-479
▁Py	-480
▁Un	-481
amet	-482
king	-483
ruct	-484
tern	-485
ther	-486
▁lab	-487
▁met	-488
ledge	-489
▁high	-490
ential	-491
▁input	-492
ificant	-493
▁proble	-494
▁within	-495
▁knowledge	-496
▁engineering	-497
▁significant	-498
ac	-499
ik	-500
▁r	-501
ari	-502
iqu	-503
▁In	-504
▁at	-505
▁ra	-506
▁we	-507
erst	-508
fore	-509
reas	-510
ware	-511
▁ass	-512
▁dep	-513
▁ind	-514
▁its	-515
feren	-516
▁have	-517
▁inter	-518
▁become	-519
▁complex	-520
▁feature	-521
▁increas	-522
▁architectures	-523
),	-524
aly	-525
ast	-526
ext	-527
▁sc	-528
ilar	-529
riev	-530
▁fun	-531
▁lay	-532
▁may	-533
▁sol	-534
ality	-535
aning	-536
▁docu	-537
▁many	-538
▁mult	-539
▁than	-540
icient	-541
▁deploy	-542
▁underst	-543
ification	-544
▁identifi	-545
▁problems	-546
▁embeddings	-547
▁prediction	-548
up	-549
rib	-550
ros	-551
▁De	-552
▁Re	-553
ages	-554
ases	-555
mant	-556
ocab	-557
ramm	-558
ress	-559
▁can	-560
▁dec	-561
▁ent	-562
▁exp	-563
▁pat	-564
▁sup	-565
ently	-566
ingly	-567
iques	-568
▁cons	-569
aining	-570
▁autom	-571
▁vocab	-572
▁common	-573
▁detect	-574
▁during	-575
▁semant	-576
▁struct	-577
▁context	-578
▁similar	-579
▁tokeniz	-580
▁identify	-581
▁vocabular	-582
▁techniques	-583
▁increasingly	-584
▁unsupervised	-585
gn	-586
ail	-587
erm	-588
rit	-589
ura	-590
▁bo	-591
▁pl	-592
ross	-593
serv	-594
thon	-595
▁tas	-596
ather	-597
gress	-598
▁cate	-599
▁each	-600
▁vari	-601
ferent	-602
▁Model	-603
▁disco	-604
▁encod	-605
▁organ	-606
ability	-607
raining	-608
▁Modern	-609
▁Python	-610
▁import	-611
▁object	-612
▁observ	-613
izations	-614
▁categor	-615
▁meaning	-616
▁tokenizer	-617
▁production	-618
▁vocabulary	-619
▁H	-620
arg	-621
ich	-622
icy	-623
ime	-624
ise	-625
oul	-626
▁pr	-627
▁ro	-628
eled	-629
ible	-630
ould	-631
uman	-632
▁cal	-633
▁col	-634
▁suc	-635
▁wid	-636
ample	-637
based	-638
earch	-639
imens	-640
olicy	-641
▁Deep	-642
▁comb	-643
▁expl	-644
▁meas	-645
▁oper	-646
▁over	-647
▁when	-648
▁appro	-649
▁exper	-650
▁rewar	-651
▁where	-652
gression	-653
▁actions	-654
▁network	-655
▁success	-656
▁provides	-657
▁research	-658
▁different	-659
▁important	-660
▁environment	-661
▁classification	-662
em	-663
ha	-664
ace	-665
anc	-666
err	-667
les	-668
ons	-669
ory	-670
▁As	-671
▁Le	-672
▁Ma	-673
▁fo	-674
ents	-675
oken	-676
vant	-677
▁des	-678
▁err	-679
▁use	-680
aract	-681
aries	-682
ities	-683
oring	-684
ribut	-685
terns	-686
uracy	-687
▁long	-688
▁main	-689
▁more	-690
▁rely	-691
▁sent	-692
▁soft	-693
▁time	-694
arning	-695
rieval	-696
▁These	-697
▁analy	-698
▁which	-699
ference	-700
▁across	-701
▁before	-702
▁conver	-703
▁modern	-704
▁search	-705
▁select	-706
▁values	-707
atically	-708
imension	-709
▁Machine	-710
▁general	-711
▁paramet	-712
▁accuracy	-713
▁decision	-714
▁patterns	-715
▁software	-716
▁attention	-717
▁efficient	-718
▁clustering	-719
▁observations	-720
▁significantly	-721
ps	-722
so	-723
sw	-724
▁#	-725
Pie	-726
elf	-727
ibr	-728
ill	-729
omm	-730
orm	-731
our	-732
▁di	-733
cogn	-734
ctly	-735
ower	-736
requ	-737
rics	-738
ving	-739
▁dom	-740
▁fin	-741
▁mem	-742
▁out	-743
▁raw	-744
▁sub	-745
Piece	-746
gramm	-747
stead	-748
▁also	-749
▁capt	-750
▁dist	-751
▁spec	-752
▁Trans	-753
▁frequ	-754
▁layer	-755
▁their	-756
▁During	-757
▁output	-758
▁policy	-759
▁recogn	-760
▁resour	-761
▁enables	-762
▁learned	-763
▁metrics	-764
▁Learning	-765
▁clusters	-766
▁discover	-767
▁generate	-768
▁programm	-769
▁semantic	-770
▁Transform	-771
▁evaluation	-772
▁frequently	-773
▁regression	-774
▁identifiers	-775
▁intelligent	-776
▁continuously	-777
PI	-778
cc	-779
ph	-780
Ops	-781
ary	-782
enc	-783
ike	-784
itt	-785
ord	-786
sis	-787
uil	-788
▁ab	-789
▁bi	-790
▁he	-791
ason	-792
ates	-793
ecur	-794
iple	-795
rame	-796
raph	-797
rate	-798
reat	-799
ustr	-800
▁add	-801
▁cor	-802
▁new	-803
▁not	-804
▁occ	-805
ences	-806
ensor	-807
▁answ	-808
▁both	-809
▁dire	-810
▁incl	-811
▁libr	-812
▁pret	-813
▁real	-814
▁word	-815
abases	-816
ommend	-817
▁found	-818
▁human	-819
▁label	-820
▁maint	-821
▁other	-822
▁previ	-823
▁tasks	-824
▁these	-825
▁weigh	-826
aracter	-827
▁effect	-828
▁expect	-829
▁making	-830
▁rather	-831
▁reason	-832
▁widely	-833
▁example	-834
▁remains	-835
▁trained	-836
▁commonly	-837
▁complete	-838
▁directly	-839
▁databases	-840
▁documents	-841
▁inference	-842
▁structure	-843
▁deployment	-844
▁foundation	-845
▁generation	-846
▁meaningful	-847
▁operations	-848
▁represents	-849
▁programming	-850
▁architecture	-851
▁transformers	-852
).	-853
mm	-854
pr	-855
ack	-856
air	-857
ard	-858
den	-859
hod	-860
ode	-861
▁GP	-862
▁ML	-863
▁Ne	-864
▁dr	-865
▁up	-866
atch	-867
ered	-868
ging	-869
hods	-870
ined	-871
ires	-872
like	-873
lows	-874
olog	-875
ough	-876
ract	-877
usin	-878
▁Dat	-879
▁adv	-880
▁all	-881
▁ess	-882
▁hid	-883
▁how	-884
▁med	-885
allen	-886
ative	-887
igned	-888
ility	-889
ormal	-890
ually	-891
uning	-892
works	-893
▁This	-894
▁buil	-895
▁diff	-896
▁resp	-897
▁summ	-898
anding	-899
ending	-900
levant	-901
▁accur	-902
▁busin	-903
▁occur	-904
▁power	-905
▁state	-906
▁under	-907
actions	-908
cessing	-909
radient	-910
▁allows	-911
▁depend	-912
▁errors	-913
▁hidden	-914
▁images	-915
▁prepro	-916
▁subwor	-917
▁Instead	-918
▁capture	-919
▁challen	-920
▁contain	-921
▁industr	-922
▁labeled	-923
▁medical	-924
▁	-925
e	-926
n	-927
a	-928
i	-929
t	-930
r	-931
s	-932
o	-933
l	-934
c	-935
d	-936
u	-937
m	-938
g	-939
h	-940
p	-941
f	-942
,	-943
y	-944
b	-945
v	-946
w	-947
.	-948
k	-949
x	-950
z	-951
-	-952
T	-953
A	-954
q	-955
M	-956
P	-957
L	-958
R	-959
D	-960
S	-961
C	-962
E	-963
I	-964
F	-965
(	-966
)	-967
G	-968
U	-969
N	-970
O	-971
B	-972
j	-973
W	-974
H	-975
#	-976
"	-977
V	-978
Q	-979
K	-980
'	-981
+	-982
2	-983
&	-984
*	-985
1	-986
:	-987
0	-988
3	-989
5	-990
7	-991
X	-992
Y	-993
[	-994
]	-995
